#ifndef SINE_MODEL_H
#define SINE_MODEL_H


unsigned int sine_model_len = 2960;
unsigned char sine_model[] = {
 0x20, 0x00, 0x00, 0x00, 0x54, 0x46, 0x4c, 0x33, 0x00, 0x00, 0x00, 0x00,
  0x00, 0x00, 0x12, 0x00, 0x1c, 0x00, 0x04, 0x00, 0x08, 0x00, 0x0c, 0x00,
  0x10, 0x00, 0x14, 0x00, 0x00, 0x00, 0x18, 0x00, 0x12, 0x00, 0x00, 0x00,
  0x03, 0x00, 0x00, 0x00, 0x44, 0x0b, 0x00, 0x00, 0x70, 0x06, 0x00, 0x00,
  0x58, 0x06, 0x00, 0x00, 0x3c, 0x00, 0x00, 0x00, 0x04, 0x00, 0x00, 0x00,
  0x01, 0x00, 0x00, 0x00, 0x0c, 0x00, 0x00, 0x00, 0x08, 0x00, 0x0c, 0x00,
  0x04, 0x00, 0x08, 0x00, 0x08, 0x00, 0x00, 0x00, 0x08, 0x00, 0x00, 0x00,
  0x0b, 0x00, 0x00, 0x00, 0x13, 0x00, 0x00, 0x00, 0x6d, 0x69, 0x6e, 0x5f,
  0x72, 0x75, 0x6e, 0x74, 0x69, 0x6d, 0x65, 0x5f, 0x76, 0x65, 0x72, 0x73,
  0x69, 0x6f, 0x6e, 0x00, 0x0c, 0x00, 0x00, 0x00, 0x08, 0x06, 0x00, 0x00,
  0xf4, 0x05, 0x00, 0x00, 0x98, 0x05, 0x00, 0x00, 0x34, 0x05, 0x00, 0x00,
  0x20, 0x05, 0x00, 0x00, 0xcc, 0x04, 0x00, 0x00, 0xb8, 0x00, 0x00, 0x00,
  0x64, 0x00, 0x00, 0x00, 0x58, 0x00, 0x00, 0x00, 0x44, 0x00, 0x00, 0x00,
  0x30, 0x00, 0x00, 0x00, 0x04, 0x00, 0x00, 0x00, 0x96, 0xfa, 0xff, 0xff,
  0x04, 0x00, 0x00, 0x00, 0x10, 0x00, 0x00, 0x00, 0x31, 0x2e, 0x35, 0x2e,
  0x30, 0x00, 0x00, 0x00, 0x00, 0x00, 0x00, 0x00, 0x00, 0x00, 0x00, 0x00,
  0x00, 0x00, 0x00, 0x00, 0x00, 0x00, 0x00, 0x00, 0x00, 0x00, 0x00, 0x00,
  0x84, 0xf5, 0xff, 0xff, 0x00, 0x00, 0x00, 0x00, 0x00, 0x00, 0x00, 0x00,
  0x00, 0x00, 0x00, 0x00, 0x94, 0xf5, 0xff, 0xff, 0x00, 0x00, 0x00, 0x00,
  0x00, 0x00, 0x00, 0x00, 0x00, 0x00, 0x00, 0x00, 0xa4, 0xf5, 0xff, 0xff,
  0x00, 0x00, 0x00, 0x00, 0xe6, 0xfa, 0xff, 0xff, 0x04, 0x00, 0x00, 0x00,
  0x40, 0x00, 0x00, 0x00, 0xe7, 0x3e, 0xef, 0xbd, 0x2e, 0xc5, 0x6c, 0xbe,
  0xba, 0x1e, 0xa4, 0x3f, 0xbc, 0xcb, 0x93, 0x3e, 0xa8, 0x3b, 0xea, 0x3e,
  0x53, 0xa7, 0xcc, 0xbe, 0xa0, 0xc4, 0xee, 0xbe, 0x52, 0xa0, 0xec, 0xbe,
  0x92, 0x34, 0x74, 0xbe, 0x84, 0x0a, 0x91, 0xbf, 0x57, 0xfa, 0xc3, 0x3d,
  0x86, 0x4a, 0x06, 0x40, 0xc4, 0x79, 0xee, 0xbe, 0x14, 0x36, 0x27, 0xbd,
  0xbb, 0xd8, 0x50, 0x3e, 0x01, 0x79, 0xf0, 0x3d, 0x00, 0x00, 0x00, 0x00,
  0x36, 0xfb, 0xff, 0xff, 0x04, 0x00, 0x00, 0x00, 0x00, 0x04, 0x00, 0x00,
  0xdf, 0xa6, 0xba, 0x3e, 0xfc, 0x10, 0x98, 0x3d, 0x6a, 0x3e, 0xa2, 0xbe,
  0x2c, 0xb2, 0xa1, 0xbd, 0x68, 0x93, 0xa7, 0xbe, 0x1a, 0x15, 0xd0, 0xbe,
  0x6c, 0x8c, 0xae, 0xbe, 0x7d, 0x9e, 0xc5, 0x3e, 0x26, 0x3a, 0xae, 0xbe,
  0x66, 0x04, 0x04, 0x3e, 0x74, 0xef, 0xc1, 0xbe, 0xcc, 0x25, 0x95, 0x3e,
  0x5a, 0x61, 0xb0, 0xbd, 0x29, 0x41, 0x92, 0xbe, 0x3b, 0x24, 0xce, 0x3e,
  0xfd, 0xe4, 0xea, 0x3d, 0xad, 0xe4, 0x9f, 0x3e, 0x7a, 0xf8, 0x8e, 0xbe,
  0x00, 0x0e, 0xa1, 0x3a, 0x30, 0x50, 0x19, 0xbe, 0xdc, 0x77, 0xaf, 0x3d,
  0x52, 0x16, 0x38, 0x3e, 0xbe, 0x7b, 0x18, 0xbe, 0x18, 0x7a, 0x30, 0xbe,
  0xbc, 0x20, 0xb9, 0x3e, 0x68, 0x3c, 0x3d, 0xbe, 0x7f, 0x09, 0xf0, 0xbd,
  0x02, 0x58, 0xd6, 0x3e, 0x7a, 0xcf, 0x2b, 0xbd, 0x6c, 0xcc, 0x98, 0x3d,
  0x01, 0xe7, 0xa4, 0xbe, 0x72, 0x23, 0xab, 0xbe, 0x34, 0xab, 0xd3, 0xbe,
  0x08, 0x3d, 0x48, 0xbd, 0xc7, 0xfe, 0xcd, 0x3e, 0x08, 0x19, 0x0c, 0x3d,
  0xca, 0xf3, 0x5d, 0xbe, 0x4f, 0x0c, 0xd6, 0xbe, 0xa2, 0xb7, 0x2c, 0xbe,
  0xc7, 0x37, 0xd3, 0x3e, 0xfa, 0x2e, 0x3d, 0xbf, 0x51, 0x08, 0xc9, 0xbe,
  0x45, 0xd3, 0xb0, 0xbd, 0x09, 0xfc, 0xc0, 0x3e, 0x15, 0xe5, 0x88, 0xbf,
  0xe7, 0xf7, 0x47, 0xbf, 0x30, 0xc3, 0x08, 0xbe, 0xaa, 0xae, 0x8b, 0x3e,
  0x54, 0x1b, 0x34, 0xbe, 0x00, 0x2e, 0xe1, 0xbd, 0xf4, 0xd4, 0xda, 0x3d,
  0x5f, 0xec, 0xb3, 0xbe, 0xe0, 0x36, 0xa1, 0xbd, 0x0f, 0xfd, 0xcb, 0x3e,
  0x11, 0x7a, 0x66, 0xbe, 0x4e, 0x56, 0x87, 0x3e, 0x69, 0xa8, 0xc5, 0x3e,
  0x34, 0x9f, 0x1a, 0xbe, 0xe9, 0xae, 0xbc, 0x3d, 0x24, 0xb9, 0x98, 0x3e,
  0xae, 0x95, 0x08, 0xbf, 0xba, 0x6f, 0x49, 0x3d, 0xc4, 0x06, 0x3a, 0xbe,
  0x0e, 0xf4, 0x22, 0x3c, 0x30, 0x4d, 0x0a, 0x3d, 0xbc, 0xc9, 0xe1, 0xbd,
  0x2c, 0x4d, 0x99, 0x3d, 0x19, 0x80, 0xb9, 0x3e, 0x80, 0x2f, 0x42, 0x3b,
  0xaf, 0xff, 0x97, 0x3e, 0x5e, 0xd7, 0x7c, 0x3e, 0xb2, 0xfd, 0x0e, 0x3e,
  0x9e, 0x32, 0x45, 0x3e, 0x66, 0x6a, 0x5f, 0x3e, 0xcc, 0xd9, 0x8d, 0xbd,
  0xac, 0x25, 0x20, 0xbe, 0xb6, 0x1e, 0x41, 0x3e, 0xd8, 0xa9, 0x31, 0xbe,
  0x55, 0x07, 0xcc, 0xbe, 0x70, 0xbf, 0xba, 0x3c, 0x17, 0x40, 0x56, 0xbd,
  0x88, 0xa5, 0x5c, 0xbd, 0x26, 0x09, 0x77, 0x3e, 0xc2, 0x6a, 0x03, 0xbe,
  0x67, 0xcc, 0xa2, 0x3e, 0xe5, 0xc7, 0xac, 0xbe, 0x21, 0x10, 0x8f, 0x3e,
  0x10, 0xfa, 0x8b, 0xbe, 0x88, 0x74, 0xc7, 0xbe, 0xf0, 0x85, 0x92, 0x3c,
  0x9d, 0x80, 0xd1, 0xbe, 0x59, 0x5d, 0x16, 0x3d, 0x47, 0x02, 0xb5, 0x3e,
  0x7e, 0x65, 0x7e, 0x3e, 0x84, 0xa4, 0x61, 0xbe, 0x47, 0x5f, 0x57, 0xbe,
  0xd4, 0x83, 0xd1, 0x3e, 0xf6, 0x73, 0x72, 0x3e, 0x00, 0x5c, 0x54, 0x3d,
  0x4a, 0xde, 0x4b, 0xbe, 0xba, 0x11, 0xbd, 0xbe, 0x88, 0xb2, 0xaf, 0xbe,
  0xda, 0x15, 0x96, 0xbe, 0xe6, 0xd8, 0x63, 0x3d, 0xda, 0x9b, 0x97, 0x3e,
  0x9d, 0xb5, 0x8f, 0x3e, 0x4c, 0xa5, 0x95, 0xbe, 0xfe, 0x76, 0x8b, 0x3d,
  0xfd, 0x4c, 0x7a, 0x3d, 0x1f, 0x0f, 0xc6, 0x3e, 0x40, 0xd6, 0x83, 0xbd,
  0xe1, 0xfe, 0xbc, 0x3d, 0x27, 0x5d, 0xf1, 0x3e, 0xf1, 0xdd, 0x98, 0xbe,
  0x80, 0xbc, 0xb2, 0x3b, 0x4e, 0x38, 0x39, 0x3e, 0x9d, 0x53, 0xc0, 0xbe,
  0x0c, 0x65, 0xbe, 0xbd, 0x4e, 0x9c, 0x91, 0xbe, 0x6f, 0xa6, 0x97, 0x3e,
  0x45, 0xdb, 0xd1, 0xbe, 0xa9, 0x6d, 0xb0, 0xbe, 0xeb, 0x14, 0x1e, 0x3e,
  0x12, 0x49, 0xb3, 0xbe, 0x71, 0xcd, 0xc2, 0xbd, 0xf5, 0xc2, 0x48, 0xbe,
  0xe4, 0x32, 0x86, 0xbe, 0x53, 0xd1, 0x51, 0xbb, 0xd4, 0x97, 0xcd, 0xbe,
  0x7a, 0x20, 0x29, 0xbe, 0xe0, 0x87, 0x1d, 0xbd, 0x18, 0xe2, 0xf3, 0xbd,
  0x30, 0xdd, 0xf4, 0xbd, 0x44, 0x00, 0xea, 0x3d, 0xb8, 0x3c, 0x85, 0xbe,
  0xea, 0x70, 0x56, 0x3e, 0xcb, 0xff, 0xd3, 0x3e, 0x67, 0x56, 0xd8, 0x3e,
  0x00, 0x36, 0x71, 0x3d, 0x0e, 0x21, 0x70, 0xbe, 0xd0, 0x90, 0x86, 0x3d,
  0xf5, 0x63, 0xa3, 0x3e, 0x40, 0xfa, 0x50, 0xbc, 0x0f, 0x8c, 0x80, 0xbe,
  0x05, 0x9c, 0x06, 0xbd, 0xa0, 0x59, 0xa0, 0x3c, 0xb8, 0x36, 0xa4, 0xbd,
  0x4d, 0xa3, 0x84, 0x3e, 0x97, 0x58, 0x86, 0x3e, 0x78, 0x3c, 0xc8, 0xbd,
  0x60, 0xca, 0x86, 0xbe, 0x02, 0xd1, 0x5f, 0xbf, 0xc0, 0xc4, 0x52, 0x3d,
  0xda, 0x29, 0x81, 0xbe, 0x86, 0x72, 0xa8, 0xbc, 0xda, 0xfd, 0x55, 0xbe,
  0x2c, 0x48, 0xfe, 0x3c, 0x61, 0x89, 0xb4, 0xbe, 0xd1, 0x98, 0x58, 0xbe,
  0x1d, 0x94, 0xa4, 0x3e, 0xf0, 0xfb, 0xbb, 0x3e, 0xa8, 0xfc, 0x84, 0x3d,
  0x8a, 0xe2, 0x30, 0x3e, 0x58, 0x4f, 0x16, 0xbd, 0x8e, 0xe6, 0x49, 0x3e,
  0xaa, 0x5d, 0x27, 0x3e, 0x0d, 0x1c, 0xcf, 0x3e, 0x21, 0x9f, 0x8c, 0xbe,
  0x1d, 0xe8, 0x07, 0xbe, 0x43, 0x45, 0xa0, 0x3e, 0x67, 0x07, 0x22, 0x3e,
  0x6b, 0x8a, 0x19, 0xbd, 0xfa, 0xc0, 0x8d, 0xbe, 0xe0, 0x70, 0x9a, 0x3d,
  0x40, 0x2d, 0xd2, 0xbb, 0xe2, 0x2a, 0x57, 0x3e, 0xe3, 0xb4, 0x05, 0x3f,
  0xcf, 0x71, 0x90, 0x3e, 0x48, 0x49, 0x9f, 0xbe, 0xbc, 0x2e, 0x8b, 0x3d,
  0x0b, 0x2c, 0xa0, 0xbe, 0xe6, 0xbd, 0x95, 0xbe, 0xb0, 0xe4, 0xc1, 0xbc,
  0x9e, 0xb2, 0x84, 0x3e, 0xd2, 0xbf, 0x45, 0x3f, 0x3c, 0x1f, 0xb9, 0xbd,
  0x86, 0xee, 0xed, 0xbd, 0x6f, 0x1f, 0xe2, 0xbe, 0x33, 0xef, 0x51, 0x3e,
  0x25, 0x86, 0xdc, 0x3e, 0xa0, 0xf7, 0xfb, 0xbd, 0xe5, 0xe7, 0xe9, 0xbe,
  0x1c, 0xa9, 0x9f, 0xbe, 0x79, 0x87, 0x68, 0xbe, 0x07, 0x64, 0xae, 0xbe,
  0x56, 0xd7, 0x6f, 0x3e, 0x09, 0xe5, 0x6e, 0xbe, 0x37, 0x8d, 0xbd, 0xbe,
  0xe8, 0xb3, 0xad, 0xbd, 0x5e, 0xdc, 0x45, 0x3e, 0x88, 0x0c, 0x04, 0x3d,
  0xb6, 0x3b, 0x08, 0x3e, 0x2e, 0x4a, 0xb8, 0xbe, 0x07, 0x46, 0xb3, 0xbe,
  0x10, 0xf6, 0x50, 0xbd, 0x19, 0xdd, 0x55, 0xbe, 0x96, 0x44, 0x80, 0xbe,
  0x38, 0xab, 0x14, 0xbd, 0x0a, 0x79, 0x91, 0x3e, 0x37, 0x27, 0xab, 0x3e,
  0x0b, 0x60, 0x93, 0x3e, 0xaf, 0x39, 0xbd, 0x3e, 0x3f, 0x7d, 0xbc, 0x3e,
  0xc0, 0x20, 0x2a, 0xbd, 0xdb, 0x79, 0x9e, 0x3e, 0x5d, 0x56, 0xbc, 0x3e,
  0xa3, 0xf9, 0xcc, 0x3e, 0x7c, 0x42, 0x21, 0xbe, 0x8c, 0xd9, 0x4f, 0xbd,
  0xcb, 0x4b, 0xad, 0x3e, 0x36, 0x94, 0x96, 0xbe, 0x31, 0xef, 0x86, 0xbe,
  0x00, 0x0c, 0x44, 0x3a, 0xa8, 0x37, 0x89, 0xbe, 0xcc, 0x73, 0xbb, 0x3e,
  0x0d, 0xdd, 0xcc, 0xbe, 0x00, 0x32, 0xce, 0xbb, 0x92, 0x00, 0x8c, 0xbe,
  0x08, 0x40, 0xd2, 0xbe, 0x12, 0xcb, 0x9c, 0xbe, 0x7c, 0xa1, 0xba, 0x3d,
  0x6f, 0x8d, 0x81, 0xbd, 0x91, 0xca, 0x78, 0x3e, 0x56, 0xfd, 0x17, 0x3e,
  0x29, 0xe7, 0x3b, 0x3e, 0xcd, 0x19, 0x91, 0xbe, 0x51, 0xcb, 0xd8, 0xbe,
  0xe8, 0x89, 0x08, 0x3e, 0xa4, 0x1d, 0x1f, 0xbe, 0xc9, 0x6c, 0xbf, 0xbd,
  0x1a, 0x83, 0x1f, 0xbe, 0x1a, 0xcd, 0x3b, 0x3e, 0x60, 0x4d, 0xa6, 0xbd,
  0xf6, 0x2d, 0x9d, 0xbe, 0xfa, 0x59, 0x21, 0xbe, 0xa0, 0x6e, 0x7c, 0xbe,
  0xa0, 0xde, 0xa9, 0xbc, 0x1b, 0x5f, 0x9c, 0x3e, 0xb0, 0x61, 0x35, 0x3d,
  0x9a, 0x1e, 0x24, 0x3e, 0xa4, 0x07, 0xa5, 0xbe, 0xbd, 0x08, 0x2c, 0xbe,
  0x47, 0x31, 0x6b, 0x3e, 0x84, 0xf9, 0x84, 0x3d, 0x4b, 0xb0, 0x82, 0x3e,
  0xe2, 0x09, 0x27, 0x3e, 0x00, 0x00, 0x00, 0x00, 0x46, 0xff, 0xff, 0xff,
  0x04, 0x00, 0x00, 0x00, 0x40, 0x00, 0x00, 0x00, 0xcc, 0xed, 0x25, 0x3f,
  0x8b, 0x58, 0x92, 0xbe, 0x46, 0x26, 0x10, 0xbf, 0xe2, 0x81, 0xa3, 0xbe,
  0x50, 0x7a, 0x4b, 0xbe, 0xae, 0x83, 0xd3, 0xbe, 0xf2, 0x7b, 0xf1, 0xbe,
  0x52, 0x55, 0xb7, 0x3e, 0x99, 0xc5, 0x6b, 0x3e, 0xa0, 0x56, 0x77, 0xbe,
  0xeb, 0xd0, 0xcf, 0x3e, 0x55, 0xa6, 0xe4, 0x3e, 0xa7, 0xae, 0x3b, 0x3e,
  0xb4, 0x02, 0x93, 0x3e, 0x56, 0x05, 0xc6, 0xbe, 0xee, 0xd0, 0xf4, 0x3d,
  0x00, 0x00, 0x00, 0x00, 0x96, 0xff, 0xff, 0xff, 0x04, 0x00, 0x00, 0x00,
  0x04, 0x00, 0x00, 0x00, 0x32, 0x5f, 0x1f, 0xbe, 0xa6, 0xff, 0xff, 0xff,
  0x04, 0x00, 0x00, 0x00, 0x40, 0x00, 0x00, 0x00, 0xea, 0xc3, 0x12, 0xbe,
  0x37, 0x7d, 0x32, 0xbe, 0x87, 0xab, 0x5a, 0x3e, 0xf1, 0x32, 0x21, 0xbe,
  0x00, 0x00, 0x00, 0x00, 0x46, 0xeb, 0x9e, 0x3b, 0x0a, 0x87, 0xe6, 0xbd,
  0x90, 0xe0, 0xeb, 0xbd, 0x00, 0x00, 0x00, 0x00, 0xb4, 0x8b, 0xac, 0x3e,
  0x3c, 0xa0, 0x2b, 0xbe, 0xcd, 0x46, 0x21, 0xbf, 0x00, 0x00, 0x00, 0x00,
  0xcb, 0xc3, 0x00, 0xbe, 0xd7, 0xe5, 0xfb, 0xbd, 0x4b, 0x30, 0x4f, 0xbb,
  0x00, 0x00, 0x00, 0x00, 0x00, 0x00, 0x00, 0x00, 0x00, 0x00, 0x00, 0x00,
  0x00, 0x00, 0x06, 0x00, 0x08, 0x00, 0x04, 0x00, 0x06, 0x00, 0x00, 0x00,
  0x04, 0x00, 0x00, 0x00, 0x40, 0x00, 0x00, 0x00, 0xd6, 0xe2, 0x1c, 0xbf,
  0x00, 0x00, 0x00, 0x00, 0x00, 0x00, 0x00, 0x00, 0x00, 0x00, 0x00, 0x00,
  0x00, 0x00, 0x00, 0x00, 0x00, 0x00, 0x00, 0x00, 0x00, 0x00, 0x00, 0x00,
  0xe2, 0x9d, 0x89, 0xbc, 0x66, 0x1b, 0x23, 0xbf, 0x00, 0x00, 0x00, 0x00,
  0xc9, 0x15, 0x83, 0x3e, 0xc8, 0x5f, 0xf3, 0x3e, 0x1f, 0x9c, 0xb0, 0xbe,
  0xa0, 0x6d, 0x30, 0xbf, 0x00, 0x00, 0x00, 0x00, 0xb0, 0x93, 0x22, 0x3f,
  0x00, 0x00, 0x00, 0x00, 0x00, 0x00, 0x00, 0x00, 0x00, 0x00, 0x00, 0x00,
  0x24, 0xfb, 0xff, 0xff, 0x00, 0x00, 0x00, 0x00, 0x00, 0x00, 0x00, 0x00,
  0x00, 0x00, 0x00, 0x00, 0x34, 0xfb, 0xff, 0xff, 0x00, 0x00, 0x00, 0x00,
  0x00, 0x00, 0x00, 0x00, 0x0f, 0x00, 0x00, 0x00, 0x4d, 0x4c, 0x49, 0x52,
  0x20, 0x43, 0x6f, 0x6e, 0x76, 0x65, 0x72, 0x74, 0x65, 0x64, 0x2e, 0x00,
  0x01, 0x00, 0x00, 0x00, 0x14, 0x00, 0x00, 0x00, 0x00, 0x00, 0x0e, 0x00,
  0x18, 0x00, 0x04, 0x00, 0x08, 0x00, 0x0c, 0x00, 0x10, 0x00, 0x14, 0x00,
  0x0e, 0x00, 0x00, 0x00, 0x00, 0x01, 0x00, 0x00, 0xf4, 0x00, 0x00, 0x00,
  0xe8, 0x00, 0x00, 0x00, 0x14, 0x00, 0x00, 0x00, 0x04, 0x00, 0x00, 0x00,
  0x04, 0x00, 0x00, 0x00, 0x6d, 0x61, 0x69, 0x6e, 0x00, 0x00, 0x00, 0x00,
  0x03, 0x00, 0x00, 0x00, 0x90, 0x00, 0x00, 0x00, 0x48, 0x00, 0x00, 0x00,
  0x04, 0x00, 0x00, 0x00, 0xce, 0xff, 0xff, 0xff, 0x00, 0x00, 0x00, 0x08,
  0x18, 0x00, 0x00, 0x00, 0x0c, 0x00, 0x00, 0x00, 0x04, 0x00, 0x00, 0x00,
  0xb4, 0xfb, 0xff, 0xff, 0x01, 0x00, 0x00, 0x00, 0x09, 0x00, 0x00, 0x00,
  0x03, 0x00, 0x00, 0x00, 0x08, 0x00, 0x00, 0x00, 0x06, 0x00, 0x00, 0x00,
  0x03, 0x00, 0x00, 0x00, 0x00, 0x00, 0x0e, 0x00, 0x14, 0x00, 0x00, 0x00,
  0x08, 0x00, 0x0c, 0x00, 0x07, 0x00, 0x10, 0x00, 0x0e, 0x00, 0x00, 0x00,
  0x00, 0x00, 0x00, 0x08, 0x1c, 0x00, 0x00, 0x00, 0x10, 0x00, 0x00, 0x00,
  0x04, 0x00, 0x00, 0x00, 0xba, 0xff, 0xff, 0xff, 0x00, 0x00, 0x00, 0x01,
  0x01, 0x00, 0x00, 0x00, 0x08, 0x00, 0x00, 0x00, 0x03, 0x00, 0x00, 0x00,
  0x07, 0x00, 0x00, 0x00, 0x05, 0x00, 0x00, 0x00, 0x02, 0x00, 0x00, 0x00,
  0x00, 0x00, 0x0e, 0x00, 0x16, 0x00, 0x00, 0x00, 0x08, 0x00, 0x0c, 0x00,
  0x07, 0x00, 0x10, 0x00, 0x0e, 0x00, 0x00, 0x00, 0x00, 0x00, 0x00, 0x08,
  0x24, 0x00, 0x00, 0x00, 0x18, 0x00, 0x00, 0x00, 0x0c, 0x00, 0x00, 0x00,
  0x00, 0x00, 0x06, 0x00, 0x08, 0x00, 0x07, 0x00, 0x06, 0x00, 0x00, 0x00,
  0x00, 0x00, 0x00, 0x01, 0x01, 0x00, 0x00, 0x00, 0x07, 0x00, 0x00, 0x00,
  0x03, 0x00, 0x00, 0x00, 0x00, 0x00, 0x00, 0x00, 0x04, 0x00, 0x00, 0x00,
  0x01, 0x00, 0x00, 0x00, 0x01, 0x00, 0x00, 0x00, 0x09, 0x00, 0x00, 0x00,
  0x01, 0x00, 0x00, 0x00, 0x00, 0x00, 0x00, 0x00, 0x0a, 0x00, 0x00, 0x00,
  0x68, 0x03, 0x00, 0x00, 0xf8, 0x02, 0x00, 0x00, 0x8c, 0x02, 0x00, 0x00,
  0x30, 0x02, 0x00, 0x00, 0xec, 0x01, 0x00, 0x00, 0xa4, 0x01, 0x00, 0x00,
  0x5c, 0x01, 0x00, 0x00, 0xd8, 0x00, 0x00, 0x00, 0x4c, 0x00, 0x00, 0x00,
  0x04, 0x00, 0x00, 0x00, 0xd4, 0xfc, 0xff, 0xff, 0x34, 0x00, 0x00, 0x00,
  0x0a, 0x00, 0x00, 0x00, 0x1c, 0x00, 0x00, 0x00, 0x14, 0x00, 0x00, 0x00,
  0x04, 0x00, 0x00, 0x00, 0x02, 0x00, 0x00, 0x00, 0xff, 0xff, 0xff, 0xff,
  0x01, 0x00, 0x00, 0x00, 0xc0, 0xfc, 0xff, 0xff, 0x08, 0x00, 0x00, 0x00,
  0x49, 0x64, 0x65, 0x6e, 0x74, 0x69, 0x74, 0x79, 0x00, 0x00, 0x00, 0x00,
  0x02, 0x00, 0x00, 0x00, 0x01, 0x00, 0x00, 0x00, 0x01, 0x00, 0x00, 0x00,
  0x18, 0xfd, 0xff, 0xff, 0x78, 0x00, 0x00, 0x00, 0x09, 0x00, 0x00, 0x00,
  0x1c, 0x00, 0x00, 0x00, 0x14, 0x00, 0x00, 0x00, 0x04, 0x00, 0x00, 0x00,
  0x02, 0x00, 0x00, 0x00, 0xff, 0xff, 0xff, 0xff, 0x10, 0x00, 0x00, 0x00,
  0x04, 0xfd, 0xff, 0xff, 0x4c, 0x00, 0x00, 0x00, 0x73, 0x65, 0x71, 0x75,
  0x65, 0x6e, 0x74, 0x69, 0x61, 0x6c, 0x2f, 0x64, 0x65, 0x6e, 0x73, 0x65,
  0x5f, 0x31, 0x2f, 0x4d, 0x61, 0x74, 0x4d, 0x75, 0x6c, 0x3b, 0x73, 0x65,
  0x71, 0x75, 0x65, 0x6e, 0x74, 0x69, 0x61, 0x6c, 0x2f, 0x64, 0x65, 0x6e,
  0x73, 0x65, 0x5f, 0x31, 0x2f, 0x52, 0x65, 0x6c, 0x75, 0x3b, 0x73, 0x65,
  0x71, 0x75, 0x65, 0x6e, 0x74, 0x69, 0x61, 0x6c, 0x2f, 0x64, 0x65, 0x6e,
  0x73, 0x65, 0x5f, 0x31, 0x2f, 0x42, 0x69, 0x61, 0x73, 0x41, 0x64, 0x64,
  0x00, 0x00, 0x00, 0x00, 0x02, 0x00, 0x00, 0x00, 0x01, 0x00, 0x00, 0x00,
  0x10, 0x00, 0x00, 0x00, 0xa0, 0xfd, 0xff, 0xff, 0x70, 0x00, 0x00, 0x00,
  0x08, 0x00, 0x00, 0x00, 0x1c, 0x00, 0x00, 0x00, 0x14, 0x00, 0x00, 0x00,
  0x04, 0x00, 0x00, 0x00, 0x02, 0x00, 0x00, 0x00, 0xff, 0xff, 0xff, 0xff,
  0x10, 0x00, 0x00, 0x00, 0x8c, 0xfd, 0xff, 0xff, 0x46, 0x00, 0x00, 0x00,
  0x73, 0x65, 0x71, 0x75, 0x65, 0x6e, 0x74, 0x69, 0x61, 0x6c, 0x2f, 0x64,
  0x65, 0x6e, 0x73, 0x65, 0x2f, 0x4d, 0x61, 0x74, 0x4d, 0x75, 0x6c, 0x3b,
  0x73, 0x65, 0x71, 0x75, 0x65, 0x6e, 0x74, 0x69, 0x61, 0x6c, 0x2f, 0x64,
  0x65, 0x6e, 0x73, 0x65, 0x2f, 0x52, 0x65, 0x6c, 0x75, 0x3b, 0x73, 0x65,
  0x71, 0x75, 0x65, 0x6e, 0x74, 0x69, 0x61, 0x6c, 0x2f, 0x64, 0x65, 0x6e,
  0x73, 0x65, 0x2f, 0x42, 0x69, 0x61, 0x73, 0x41, 0x64, 0x64, 0x00, 0x00,
  0x02, 0x00, 0x00, 0x00, 0x01, 0x00, 0x00, 0x00, 0x10, 0x00, 0x00, 0x00,
  0x86, 0xfe, 0xff, 0xff, 0x34, 0x00, 0x00, 0x00, 0x07, 0x00, 0x00, 0x00,
  0x0c, 0x00, 0x00, 0x00, 0x04, 0x00, 0x00, 0x00, 0xfc, 0xfd, 0xff, 0xff,
  0x19, 0x00, 0x00, 0x00, 0x73, 0x65, 0x71, 0x75, 0x65, 0x6e, 0x74, 0x69,
  0x61, 0x6c, 0x2f, 0x64, 0x65, 0x6e, 0x73, 0x65, 0x5f, 0x32, 0x2f, 0x4d,
  0x61, 0x74, 0x4d, 0x75, 0x6c, 0x00, 0x00, 0x00, 0x02, 0x00, 0x00, 0x00,
  0x01, 0x00, 0x00, 0x00, 0x10, 0x00, 0x00, 0x00, 0xca, 0xfe, 0xff, 0xff,
  0x34, 0x00, 0x00, 0x00, 0x06, 0x00, 0x00, 0x00, 0x0c, 0x00, 0x00, 0x00,
  0x04, 0x00, 0x00, 0x00, 0x40, 0xfe, 0xff, 0xff, 0x19, 0x00, 0x00, 0x00,
  0x73, 0x65, 0x71, 0x75, 0x65, 0x6e, 0x74, 0x69, 0x61, 0x6c, 0x2f, 0x64,
  0x65, 0x6e, 0x73, 0x65, 0x5f, 0x31, 0x2f, 0x4d, 0x61, 0x74, 0x4d, 0x75,
  0x6c, 0x00, 0x00, 0x00, 0x02, 0x00, 0x00, 0x00, 0x10, 0x00, 0x00, 0x00,
  0x10, 0x00, 0x00, 0x00, 0x0e, 0xff, 0xff, 0xff, 0x30, 0x00, 0x00, 0x00,
  0x05, 0x00, 0x00, 0x00, 0x0c, 0x00, 0x00, 0x00, 0x04, 0x00, 0x00, 0x00,
  0x84, 0xfe, 0xff, 0xff, 0x17, 0x00, 0x00, 0x00, 0x73, 0x65, 0x71, 0x75,
  0x65, 0x6e, 0x74, 0x69, 0x61, 0x6c, 0x2f, 0x64, 0x65, 0x6e, 0x73, 0x65,
  0x2f, 0x4d, 0x61, 0x74, 0x4d, 0x75, 0x6c, 0x00, 0x02, 0x00, 0x00, 0x00,
  0x10, 0x00, 0x00, 0x00, 0x01, 0x00, 0x00, 0x00, 0x4e, 0xff, 0xff, 0xff,
  0x4c, 0x00, 0x00, 0x00, 0x04, 0x00, 0x00, 0x00, 0x0c, 0x00, 0x00, 0x00,
  0x04, 0x00, 0x00, 0x00, 0xc4, 0xfe, 0xff, 0xff, 0x32, 0x00, 0x00, 0x00,
  0x73, 0x65, 0x71, 0x75, 0x65, 0x6e, 0x74, 0x69, 0x61, 0x6c, 0x2f, 0x64,
  0x65, 0x6e, 0x73, 0x65, 0x5f, 0x32, 0x2f, 0x42, 0x69, 0x61, 0x73, 0x41,
  0x64, 0x64, 0x2f, 0x52, 0x65, 0x61, 0x64, 0x56, 0x61, 0x72, 0x69, 0x61,
  0x62, 0x6c, 0x65, 0x4f, 0x70, 0x2f, 0x72, 0x65, 0x73, 0x6f, 0x75, 0x72,
  0x63, 0x65, 0x00, 0x00, 0x01, 0x00, 0x00, 0x00, 0x01, 0x00, 0x00, 0x00,
  0xa6, 0xff, 0xff, 0xff, 0x4c, 0x00, 0x00, 0x00, 0x03, 0x00, 0x00, 0x00,
  0x0c, 0x00, 0x00, 0x00, 0x04, 0x00, 0x00, 0x00, 0x1c, 0xff, 0xff, 0xff,
  0x32, 0x00, 0x00, 0x00, 0x73, 0x65, 0x71, 0x75, 0x65, 0x6e, 0x74, 0x69,
  0x61, 0x6c, 0x2f, 0x64, 0x65, 0x6e, 0x73, 0x65, 0x5f, 0x31, 0x2f, 0x42,
  0x69, 0x61, 0x73, 0x41, 0x64, 0x64, 0x2f, 0x52, 0x65, 0x61, 0x64, 0x56,
  0x61, 0x72, 0x69, 0x61, 0x62, 0x6c, 0x65, 0x4f, 0x70, 0x2f, 0x72, 0x65,
  0x73, 0x6f, 0x75, 0x72, 0x63, 0x65, 0x00, 0x00, 0x01, 0x00, 0x00, 0x00,
  0x10, 0x00, 0x00, 0x00, 0x00, 0x00, 0x0e, 0x00, 0x14, 0x00, 0x04, 0x00,
  0x00, 0x00, 0x08, 0x00, 0x0c, 0x00, 0x10, 0x00, 0x0e, 0x00, 0x00, 0x00,
  0x4c, 0x00, 0x00, 0x00, 0x02, 0x00, 0x00, 0x00, 0x0c, 0x00, 0x00, 0x00,
  0x04, 0x00, 0x00, 0x00, 0x84, 0xff, 0xff, 0xff, 0x30, 0x00, 0x00, 0x00,
  0x73, 0x65, 0x71, 0x75, 0x65, 0x6e, 0x74, 0x69, 0x61, 0x6c, 0x2f, 0x64,
  0x65, 0x6e, 0x73, 0x65, 0x2f, 0x42, 0x69, 0x61, 0x73, 0x41, 0x64, 0x64,
  0x2f, 0x52, 0x65, 0x61, 0x64, 0x56, 0x61, 0x72, 0x69, 0x61, 0x62, 0x6c,
  0x65, 0x4f, 0x70, 0x2f, 0x72, 0x65, 0x73, 0x6f, 0x75, 0x72, 0x63, 0x65,
  0x00, 0x00, 0x00, 0x00, 0x01, 0x00, 0x00, 0x00, 0x10, 0x00, 0x00, 0x00,
  0x14, 0x00, 0x18, 0x00, 0x04, 0x00, 0x00, 0x00, 0x08, 0x00, 0x0c, 0x00,
  0x10, 0x00, 0x00, 0x00, 0x00, 0x00, 0x14, 0x00, 0x14, 0x00, 0x00, 0x00,
  0x38, 0x00, 0x00, 0x00, 0x01, 0x00, 0x00, 0x00, 0x20, 0x00, 0x00, 0x00,
  0x18, 0x00, 0x00, 0x00, 0x04, 0x00, 0x00, 0x00, 0x02, 0x00, 0x00, 0x00,
  0xff, 0xff, 0xff, 0xff, 0x01, 0x00, 0x00, 0x00, 0x04, 0x00, 0x04, 0x00,
  0x04, 0x00, 0x00, 0x00, 0x0b, 0x00, 0x00, 0x00, 0x64, 0x65, 0x6e, 0x73,
  0x65, 0x5f, 0x69, 0x6e, 0x70, 0x75, 0x74, 0x00, 0x02, 0x00, 0x00, 0x00,
  0x01, 0x00, 0x00, 0x00, 0x01, 0x00, 0x00, 0x00, 0x01, 0x00, 0x00, 0x00,
  0x10, 0x00, 0x00, 0x00, 0x0c, 0x00, 0x10, 0x00, 0x07, 0x00, 0x00, 0x00,
  0x08, 0x00, 0x0c, 0x00, 0x0c, 0x00, 0x00, 0x00, 0x00, 0x00, 0x00, 0x09,
  0x09, 0x00, 0x00, 0x00, 0x09, 0x00, 0x00, 0x00
};

#endif //SINE_MODEL_H